▁के: 326040
।: 270047
▁में: 240292
▁है: 215519
▁की: 197474
,: 185205
▁को: 156151
▁से: 147346
▁का: 123398
.: 116875
▁और: 115365
▁ने: 108464
▁पर: 100405
क: 90482
▁कि: 89667
न: 82236
▁हैं: 80599
ों: 77433
ल: 73155
म: 71367
ने: 70044
▁: 69104
त: 69027
▁भी: 67304
स: 66685
द: 59733
र: 58060
ता: 58041
व: 56696
▁कर: 55587
प: 55575
▁आ: 55495
ज: 55459
े: 54459
▁एक: 54352
ट: 54280
-: 51024
ब: 49813
ना: 49696
▁लिए: 49271
▁इस: 49255
▁नहीं: 47279
▁प्र: 45861
▁स: 45256
ो: 44811
ी: 44760
श: 44692
ु: 43922
▁प: 43761
िक: 43661
ह: 43485
ित: 43149
▁क: 42849
ा: 42799
▁म: 42764
ड: 42374
▁न: 42267
ि: 41838
▁ही: 41650
▁अ: 41595
ं: 41179
▁हो: 39876
▁व: 39693
ू: 39588
य: 39126
ती: 37598
▁किया: 36546
▁ग: 36340
ला: 36124
▁तो: 35977
ग: 35394
रा: 34875
▁ब: 34770
कर: 34128
ण: 33414
▁श: 33284
ें: 33190
▁था: 33178
e: 33174
▁ह: 31985
ते: 31425
या: 31246
▁कहा: 31235
▁द: 31216
▁च: 31084
▁यह: 31055
▁सं: 30708
नी: 30218
▁गया: 30203
▁करने: 29856
ार: 29477
▁र: 29130
ले: 28802
्र: 28646
च: 28573
▁ख: 28492
ली: 28416
▁जा: 28330
▁ज: 27877
▁फ: 27792
▁साथ: 27696
र्: 27536
्य: 27033
री: 26707
सी: 26109
वा: 26014
फ: 25845
ई: 25769
▁त: 25362
ियों: 25168
्: 25121
▁वि: 24822
ान: 24784
ख: 24724
का: 24576
▁भ: 24470
▁उ: 24462
▁बाद: 23831
▁ल: 22799
▁रहे: 22741
ध: 22662
ड़: 22056
▁इ: 21952
▁जो: 21948
a: 21645
▁ए: 21497
▁दिया: 21033
▁अपने: 21005
▁(: 20876
▁तक: 20845
): 20736
▁नि: 20608
ॉ: 20578
▁या: 20473
o: 20118
i: 19949
ाय: 19945
ाम: 19851
टी: 19650
थ: 19518
ै: 19425
▁हुए: 19421
स्: 19333
ए: 18917
▁ट: 18873
▁रहा: 18657
s: 18589
रे: 18370
▁सा: 18351
सा: 18285
जी: 18255
के: 18190
▁थी: 18164
मा: 18024
▁आप: 17748
▁रही: 17657
न्: 17636
गा: 17497
ति: 17247
की: 17173
▁गई: 16905
ंग: 16866
▁मु: 16843
▁उन्होंने: 16578
्या: 16564
ारी: 16551
▁सरकार: 16551
जा: 16483
0: 16404
▁थे: 16362
t: 16360
▁दी: 16331
▁लेकिन: 16307
दा: 16025
स्ट: 15873
▁घ: 15823
ौ: 15329
▁वह: 15288
▁सु: 15252
▁हम: 15145
पी: 15101
िया: 15094
िल: 15084
▁दे: 14972
▁बात: 14747
:: 14746
▁कुछ: 14730
▁सी: 14728
भ: 14704
वि: 14641
से: 14614
5: 14463
▁राज: 14415
▁पहले: 14355
इ: 14322
▁ड: 14303
वी: 14301
गी: 14267
ठ: 14203
1: 14120
h: 14101
2: 14064
ष: 14025
ंद: 13888
▁अब: 13863
▁दो: 13819
ंड: 13812
l: 13743
ाल: 13699
▁कम: 13662
▁ध: 13651
▁होने: 13622
▁पा: 13574
▁इन: 13558
▁बा: 13541
वर: 13381
r: 13267
कार: 13136
▁लोगों: 13118
दी: 13115
▁ये: 12959
▁वाले: 12947
ां: 12906
▁ले: 12904
▁कोई: 12877
िंग: 12785
▁वे: 12777
स्त: 12754
▁छ: 12753
▁भारत: 12697
▁करते: 12640
त्: 12629
▁गए: 12596
u: 12582
▁पुलिस: 12544
िय: 12483
▁सम: 12450
▁अपनी: 12437
▁साल: 12427
▁मे: 12372
िस: 12343
3: 12328
7: 12288
श्: 12220
▁2: 12210
▁इसके: 12187
कों: 12021
ुल: 12008
त्र: 11976
क्: 11827
ानी: 11791
▁.: 11767
▁सिंह: 11704
6: 11681
▁स्: 11621
▁किसी: 11614
▁मा: 11553
▁बार: 11524
ड़ी: 11466
4: 11433
▁आज: 11430
▁सि: 11411
d: 11298
c: 11214
’: 11178
बी: 11177
बा: 11167
p: 11155
8: 11038
▁काम: 11037
ाना: 11036
9: 11021
▁देश: 10963
▁ला: 10941
▁जब: 10901
▁‘: 10892
ही: 10842
वे: 10677
‍: 10674
क्ष: 10588
्स: 10585
▁तरह: 10485
▁हुआ: 10386
▁3: 10384
मान: 10360
पा: 10309
▁लेकर: 10294
▁बताया: 10290
टर: 10256
ज़: 10252
▁कई: 10166
▁समय: 10144
ूर: 10115
ड़ा: 10071
▁उनके: 10065
हा: 10056
ष्ट: 10046
▁रा: 9993
उ: 9873
ास: 9822
▁हुई: 9785
m: 9768
▁उप: 9738
▁उस: 9715
ोल: 9705
डी: 9698
▁दिन: 9695
ओं: 9665
ँ: 9592
▁जी: 9492
▁नाम: 9470
वार: 9440
▁द्वारा: 9270
एस: 9255
िन: 9251
्रे: 9213
अ: 9151
ारा: 9104
▁रूप: 9091
िम: 9082
▁मिल: 9049
तर: 8953
ाइ: 8910
▁प्रति: 8908
पुर: 8814
▁उन्हें: 8814
▁पी: 8810
▁': 8787
घ: 8781
▁सभी: 8777
▁रह: 8737
▁फिर: 8731
ल्: 8725
▁लगा: 8725
▁जाता: 8702
▁फिल्म: 8696
▁बी: 8640
▁बे: 8611
▁होता: 8606
▁लोग: 8604
▁करना: 8588
ेल: 8581
▁झ: 8566
▁बढ़: 8566
▁4: 8539
▁बन: 8537
जन: 8512
टा: 8495
को: 8491
▁देख: 8483
म्: 8456
▁जाने: 8454
ेश: 8443
ंच: 8407
▁गु: 8347
ोर: 8336
▁होगा: 8314
्री: 8309
▁हर: 8309
ार्: 8263
ुर: 8251
▁मान: 8221
शन: 8198
▁प्रदेश: 8182
▁कार: 8138
▁हि: 8133
द्ध: 8119
▁क्षेत्र: 8109
दार: 8095
▁बहुत: 8085
▁ना: 8073
▁मह: 8063
▁सकता: 8055
▁जु: 8049
▁बना: 7925
मी: 7895
▁पु: 7892
▁आई: 7851
िका: 7815
y: 7788
▁सकते: 7764
▁दिल्ली: 7748
▁अनु: 7732
▁य: 7729
▁लिया: 7727
ृ: 7725
ेट: 7723
र्म: 7714
▁कांग्रेस: 7668
▁वर्ष: 7656
▁चुनाव: 7644
?: 7630
': 7598
़: 7573
्ट: 7553
िर: 7458
गर: 7455
िव: 7379
▁दौरान: 7360
▁स्ट: 7345
▁रख: 7337
▁एवं: 7332
प्र: 7320
दे: 7306
▁राज्य: 7302
▁कार्य: 7295
▁घर: 7284
▁सबसे: 7279
एं: 7251
▁भारतीय: 7244
▁मैं: 7232
▁कै: 7174
आई: 7163
द्: 7158
▁अधिक: 7154
▁5: 7139
▁दु: 7137
▁बता: 7134
चार: 7124
भा: 7117
n: 7105
शी: 7103
नों: 7097
ड़े: 7097
▁शुरू: 7094
ंत: 7086
▁क्या: 7071
▁वो: 7066
▁टीम: 7059
▁नी: 7051
र्स: 7037
▁तथा: 7017
टे: 6971
▁पास: 6962
▁कारण: 6933
▁।: 6919
▁उसके: 6900
▁पार्टी: 6881
प्: 6864
▁वाली: 6852
▁उनकी: 6845
▁बीच: 6845
्म: 6818
▁रो: 6805
▁सो: 6798
▁201: 6787
ैन: 6737
चा: 6736
वाल: 6732
बर: 6730
...: 6725
िश: 6718
▁स्व: 6709
00: 6668
सर: 6634
क्ट: 6631
▁ज्यादा: 6621
in: 6613
▁-: 6610
▁चाहिए: 6608
g: 6604
▁उन: 6600
ून: 6588
▁उसे: 6586
▁जिस: 6585
b: 6561
▁अप: 6560
ियां: 6556
▁1: 6533
▁वा: 6526
▁यहां: 6512
ाई: 6510
ोज: 6496
▁मामले: 6479
▁पहुंच: 6476
ये: 6471
ाने: 6445
ीन: 6433
्यू: 6412
▁सब: 6409
▁जान: 6396
▁दोनों: 6383
▁ऐसे: 6373
ंट: 6364
▁मन: 6362
▁अगर: 6333
▁मोदी: 6315
▁तीन: 6305
▁ऑ: 6303
▁ओ: 6285
िट: 6264
▁करें: 6262
▁आपको: 6254
▁परि: 6246
▁अम: 6243
▁ई: 6234
▁श्री: 6231
w: 6224
▁6: 6218
▁अं: 6218
चे: 6191
ेंगे: 6190
्ल: 6169
▁कह: 6166
ंस: 6137
▁देने: 6121
दान: 6071
▁अपना: 6071
▁जाए: 6062
ोग: 6020
▁चल: 6019
k: 6013
▁खिलाफ: 6001
▁ग्र: 5994
▁ता: 5961
देश: 5956
▁बु: 5947
▁करोड़: 5946
f: 5940
▁होती: 5938
ाली: 5935
▁पै: 5932
er: 5914
क्स: 5913
ची: 5909
▁7: 5894
हर: 5891
्त: 5887
▁चौ: 5884
▁सू: 5845
an: 5836
ढ़: 5834
एम: 5823
लों: 5801
ाला: 5784
▁रुपये: 5763
▁:: 5747
ोट: 5689
▁गो: 5660
िए: 5643
▁मो: 5641
क्त: 5618
▁अन्य: 5591
गत: 5573
▁लाख: 5571
ैं: 5570
▁पूर्व: 5556
▁रि: 5541
▁|: 5537
▁मांग: 5533
लो: 5528
ओ: 5486
▁बारे: 5459
ar: 5428
नि: 5417
▁ट्र: 5410
▁कु: 5408
▁इससे: 5404
▁ऐसा: 5387
▁मै: 5373
▁मंत्री: 5369
▁अन: 5364
ंध: 5351
▁डॉ: 5343
▁किए: 5339
▁10: 5331
▁जाएगा: 5328
▁भाजपा: 5326
▁पद: 5322
▁कॉ: 5317
▁कुमार: 5307
▁महिला: 5303
आ: 5276
▁एस: 5257
▁पू: 5251
▁ली: 5245
▁काफी: 5233
▁इसी: 5226
▁राम: 5217
झ: 5206
में: 5202
िता: 5197
▁डि: 5187
▁19: 5184
णी: 5180
▁वहीं: 5156
▁शामिल: 5151
▁आरोप: 5151
पाल: 5148
ेत: 5141
स्ता: 5136
वास: 5128
पर: 5120
▁दर: 5104
on: 5101
▁अस: 5068
▁लग: 5062
▁अध्यक्ष: 5062
▁जारी: 5048
▁ओर: 5020
्रा: 5011
ंप: 5005
/: 4973
▁आर: 4969
▁खु: 4968
▁भा: 4944
▁अव: 4933
ाह: 4931
जे: 4921
▁जानकारी: 4909
▁गांव: 4904
ळ: 4899
▁कंपनी: 4894
छ: 4878
ूल: 4862
▁करता: 4857
▁मौ: 4830
▁होगी: 4830
▁विभाग: 4821
ारे: 4819
▁दा: 4810
▁जैसे: 4753
▁बि: 4750
रो: 4748
▁लड़: 4745
▁मुख्यमंत्री: 4738
रण: 4703
ेशन: 4691
▁महा: 4688
v: 4688
▁हाल: 4684
तों: 4667
▁साम: 4643
▁पढ़: 4642
▁समझ: 4633
▁प्रा: 4632
▁योजना: 4630
▁8: 4609
▁इसे: 4606
▁जन: 4589
▁आम: 4580
!: 4573
▁सामने: 4567
वाद: 4567
▁पिछले: 4563
▁विकास: 4560
at: 4546
es: 4536
▁संग: 4529
▁,: 4516
or: 4515
▁पह: 4514
▁सकती: 4510
ोध: 4506
▁निर्: 4496
▁संबंध: 4496
▁चाह: 4488
क्टर: 4471
ंक: 4461
▁बह: 4453
ताओं: 4449
▁अग: 4446
▁रे: 4443
ूट: 4436
▁कप: 4436
खा: 4428
्‍: 4425
▁आने: 4423
▁हा: 4409
▁पड़: 4402
वन: 4392
▁अनुसार: 4377
▁पूरी: 4374
▁ठ: 4363
▁आए: 4361
▁जि: 4359
ेर: 4353
▁वर्: 4342
▁P: 4342
▁अभी: 4338
इन: 4307
▁जिला: 4299
चित: 4289
▁बंद: 4270
र्ड: 4269
क्षा: 4263
धी: 4257
▁होते: 4255
▁जाती: 4244
ेंट: 4242
▁नई: 4241
▁S: 4235
▁उत्: 4211
▁विश्व: 4209
▁कर्म: 4203
▁करे: 4197
▁टी: 4193
▁डी: 4192
▁चे: 4190
▁क्योंकि: 4177
▁खेल: 4159
▁बो: 4158
डे: 4154
ृत: 4150
▁यू: 4145
▁खा: 4136
▁जर: 4135
धार: 4129
▁हजार: 4114
्ला: 4108
▁मत: 4103
न्द: 4094
▁सह: 4083
▁मुझे: 4077
▁नेता: 4074
▁भर: 4073
▁दर्ज: 4071
धिक: 4065
▁चार: 4064
▁घटना: 4060
▁इसमें: 4059
▁जांच: 4055
▁शिव: 4053
▁जबकि: 4040
▁अध: 4039
▁उनका: 4032
▁बड़ी: 4032
▁प्रधानमंत्री: 4026
▁मैच: 4016
▁बनाने: 4003
बाद: 4001
▁ब्र: 3972
▁करीब: 3971
▁जहां: 3955
ौर: 3948
▁9: 3944
▁तब: 3936
▁क्र: 3927
▁A: 3926
सल: 3924
▁इला: 3918
en: 3912
▁परिवार: 3900
▁रुपए: 3898
▁आगे: 3897
▁दर्: 3892
▁20: 3889
जय: 3886
फ़: 3874
▁मीडिया: 3868
▁इसलिए: 3864
ूम: 3850
▁ज़: 3848
ंगे: 3845
▁अलावा: 3844
▁दिए: 3841
▁वजह: 3839
▁योग: 3838
आर: 3837
▁जिसमें: 3831
▁दिखा: 3823
|: 3820
▁स्कूल: 3805
ऊ: 3805
▁जिन: 3797
▁गा: 3797
▁12: 3790
▁हालांकि: 3785
S: 3784
शा: 3773
▁शहर: 3773
▁मिला: 3765
हन: 3759
▁आधार: 3756
▁उसकी: 3754
▁पानी: 3750
▁चला: 3748
▁आया: 3748
▁जीत: 3744
यर: 3741
▁H: 3732
वान: 3722
प्ता: 3721
▁मिले: 3714
र्य: 3709
न्न: 3703
▁सर: 3699
न्द्र: 3695
म्म: 3692
ैंड: 3688
ढ: 3681
▁वै: 3673
▁कभी: 3672
▁15: 3665
▁बाहर: 3656
▁बस: 3655
▁आय: 3654
ुक्त: 3654
ेज: 3647
पन: 3647
भाव: 3645
▁पाकिस्तान: 3638
▁जीवन: 3634
▁अधिकारी: 3630
धान: 3626
बार: 3624
▁दें: 3622
िला: 3621
▁कार्यक्रम: 3609
हत: 3607
णा: 3603
▁इसका: 3598
्ड: 3597
िल्: 3577
जर: 3575
र्क: 3572
ष्: 3570
▁दूसरे: 3568
▁समाज: 3568
▁कहना: 3566
▁मुताबिक: 3561
मे: 3559
तन: 3559
▁तु: 3551
▁चु: 3550
▁बै: 3550
▁जै: 3541
▁हाथ: 3540
▁बॉ: 3532
र्ट: 3532
▁मि: 3530
ुक: 3528
▁अलग: 3521
▁अर: 3521
▁समा: 3517
▁पांच: 3507
E: 3506
al: 3506
20: 3504
ोक: 3498
▁दिनों: 3497
ियन: 3496
di: 3496
▁हे: 3495
ार्थ: 3495
▁आपके: 3491
▁": 3491
▁विशेष: 3490
▁स्प: 3467
▁केंद्र: 3465
स्था: 3463
▁करा: 3462
▁मुख्य: 3460
▁C: 3458
▁स्थ: 3450
▁ढ: 3447
▁जगह: 3445
ंत्र: 3444
करण: 3441
▁कोर्ट: 3441
मेंट: 3440
▁ची: 3439
▁कुल: 3435
▁ऐ: 3433
▁पता: 3427
▁तैयार: 3423
ियर: 3422
्यों: 3414
▁कल: 3403
ूस: 3398
ंदी: 3397
त्म: 3397
त्य: 3396
▁जाते: 3396
▁तहत: 3394
ोन: 3393
▁इं: 3391
▁नौ: 3389
▁नजर: 3384
▁आदि: 3378
▁गांधी: 3375
▁उत्तर: 3374
स्क: 3371
वाई: 3371
द्य: 3361
ायर: 3360
▁हूं: 3360
▁डे: 3350
▁वाला: 3349
▁हमारे: 3347
▁वहां: 3339
▁ऑफ: 3335
इट: 3332
कि: 3328
▁शर्मा: 3317
▁स्थान: 3309
▁बैंक: 3298
▁पे: 3295
▁सिर्फ: 3281
▁सौ: 3275
A: 3270
हित: 3270
▁व्यक्ति: 3269
ब्: 3265
▁पूरा: 3264
▁जनता: 3258
राज: 3257
▁निक: 3248
गढ़: 3243
▁डा: 3242
ंब: 3240
▁दुनिया: 3223
क्ति: 3221
ैसे: 3219
▁छात्र: 3214
लि: 3209
▁बड़े: 3201
▁खुद: 3199
▁सवाल: 3197
▁फीसदी: 3194
▁एन: 3194
▁फ़: 3188
हार: 3180
▁कृ: 3179
▁रन: 3178
ंदर: 3176
मार: 3175
▁आग: 3174
▁संघ: 3174
▁देते: 3174
L: 3171
▁वित: 3166
क्षण: 3166
▁मार: 3162
▁पहली: 3160
▁बैठक: 3158
▁मेरे: 3154
▁मौत: 3151
▁चि: 3150
▁उसने: 3148
▁M: 3148
हरा: 3144
ंगा: 3134
▁दूर: 3131
▁जिसके: 3128
▁रिपोर्ट: 3126
▁सुरक्षा: 3114
▁सुन: 3114
▁बाजार: 3109
▁11: 3109
ंबर: 3108
▁बड़ा: 3107
द्र: 3091
▁विक: 3090
▁मार्: 3081
▁यदि: 3080
▁सेवा: 3074
▁थ: 3068
त्री: 3062
ठी: 3061
धा: 3060
▁दल: 3055
▁बच्चों: 3049
काल: 3048
ामी: 3038
▁करती: 3036
▁200: 3033
ल्प: 3029
▁लगे: 3025
्व: 3021
िये: 3014
▁करके: 3013
पूर्ण: 3004
M: 3004
▁लोक: 3001
▁रहने: 2999
▁राष्ट्रीय: 2999
▁प्रो: 2998
दों: 2990
▁करेंगे: 2987
▁दिल: 2984
▁प्रदर्शन: 2980
▁मदद: 2980
▁रात: 2977
▁प्रे: 2975
बे: 2974
▁–: 2972
om: 2971
र्ष: 2968
▁लाल: 2966
▁ते: 2966
▁N: 2960
▁मिली: 2960
▁सीट: 2958
▁खबर: 2957
▁अभ: 2955
मु: 2952
▁स्थित: 2950
ात: 2944
▁वीडियो: 2941
▁लि: 2931
ैल: 2930
स्थान: 2924
▁खान: 2923
▁तरफ: 2923
▁शु: 2916
▁बैठ: 2914
एल: 2912
▁दिव: 2905
ेंस: 2904
ूरी: 2897
▁भाग: 2895
▁आद: 2894
स्थ: 2893
▁यादव: 2889
षा: 2888
▁धर्म: 2888
I: 2887
ग्: 2886
र्च: 2881
▁विधानसभा: 2871
▁समस्या: 2871
▁तौर: 2871
▁जम: 2871
वं: 2868
▁सुर: 2868
▁B: 2867
▁ऊ: 2865
ंज: 2864
▁पूछ: 2862
▁नगर: 2862
▁लिये: 2860
त्व: 2860
जों: 2860
दारी: 2858
▁I: 2850
▁ऐसी: 2848
▁प्रतिशत: 2847
▁जे: 2845
▁इसकी: 2843
▁लेने: 2840
▁लिख: 2838
▁प्राप्त: 2834
षण: 2833
सान: 2832
धि: 2826
▁रंग: 2823
▁बर: 2814
▁इंडिया: 2809
▁युव: 2807
▁R: 2807
ंडी: 2802
ूप: 2802
मो: 2796
▁पत्र: 2796
▁शिक्षा: 2794
-1: 2792
ज्ञ: 2791
P: 2788
ग्र: 2784
ूर्: 2783
वीर: 2781
▁मंदिर: 2780
यन: 2776
▁गै: 2773
▁डाल: 2773
▁ख़: 2770
▁केवल: 2766
▁स्थिति: 2760
▁प्रमुख: 2759
त्ता: 2758
▁निर्माण: 2758
▁उठा: 2757
st: 2756
G: 2750
▁मध्य: 2749
तिक: 2748
▁महीने: 2743
▁रिक: 2741
तम: 2737
▁जिससे: 2737
▁माल: 2737
▁गुरु: 2737
▁प्रकार: 2728
▁फै: 2728
ुट: 2727
▁पुर: 2724
कान: 2722
ीय: 2721
लाई: 2720
▁नए: 2720
लर: 2720
▁रु: 2719
▁2018: 2718
र्व: 2717
▁जाएगी: 2716
▁विचार: 2715
था: 2714
▁आहे: 2711
O: 2709
ल्ड: 2709
ध्य: 2708
▁पंच: 2706
ेंद्र: 2706
▁स्तर: 2699
▁0: 2697
स्‍: 2695
्टी: 2695
डा: 2692
▁बजे: 2692
ंका: 2692
▁पेश: 2691
▁छोड़: 2688
भव: 2687
▁बिजली: 2686
नाथ: 2680
▁t: 2676
ष्ठ: 2674
▁मैंने: 2674
ियो: 2672
▁खिला: 2671
▁अफ: 2671
ः: 2670
T: 2669
ंदा: 2669
राब: 2662
▁सर्व: 2661
▁आस: 2659
▁कोशिश: 2651
त्रा: 2649
▁एम: 2649
▁बीजेपी: 2648
”: 2646
▁बाल: 2642
बल: 2639
▁भूम: 2637
▁हमें: 2635
▁पूरे: 2631
▁चुके: 2628
प्त: 2628
र्ण: 2627
▁लाभ: 2625
▁निय: 2621
▁इस्तेमाल: 2618
फा: 2611
▁होना: 2611
▁मौजूद: 2610
▁छा: 2609
▁अंतर: 2607
▁मी: 2607
चना: 2605
▁सुबह: 2603
ण्या: 2599
▁जिले: 2597
ार्ट: 2595
▁मौके: 2593
▁व्य: 2591
▁उसका: 2589
▁सके: 2585
▁माह: 2580
ियम: 2579
▁खास: 2579
it: 2577
▁प्रभाव: 2575
▁रेल: 2565
दन: 2563
एन: 2561
पे: 2560
क्र: 2556
▁बढ़ा: 2555
स्प: 2553
▁विरोध: 2551
▁ध्यान: 2547
र्ज: 2543
▁यही: 2543
▁मुंबई: 2543
▁गयी: 2543
▁जाना: 2535
ad: 2532
च्छ: 2525
▁टे: 2524
हाँ: 2522
000: 2522
▁अख: 2521
जू: 2519
▁अधिकारियों: 2504
बंध: 2504
▁18: 2495
F: 2494
▁हु: 2493
▁संख्या: 2492
▁राहुल: 2492
वासी: 2491
▁खे: 2485
▁व्याप: 2485
▁T: 2482
▁शादी: 2481
▁उठ: 2481
▁सरकारी: 2476
▁विदेश: 2474
▁मामला: 2473
ोह: 2471
ुन: 2466
▁कैसे: 2466
▁मां: 2463
▁बयान: 2462
▁गि: 2458
▁कौ: 2454
▁शाह: 2453
्रम: 2451
▁बिना: 2445
▁दूसरी: 2445
▁गेंद: 2444
सि: 2442
▁ति: 2441
▁दि: 2440
▁बद: 2429
▁बल्कि: 2423
टक: 2421
त्या: 2421
ुत: 2421
▁“: 2417
वाह: 2416
ुरु: 2413
▁युवा: 2413
▁सफल: 2410
दर्: 2409
▁बदल: 2408
ic: 2408
▁पार: 2407
▁हत्या: 2405
▁बचा: 2405
▁ट्रे: 2402
▁होंगे: 2399
ing: 2396
▁रखा: 2393
▁बज: 2387
▁जल: 2382
सम: 2382
▁धन: 2382
कर्: 2380
भी: 2380
▁नोट: 2379
▁सक: 2379
▁दिख: 2377
▁त्या: 2372
▁अस्पताल: 2370
▁25: 2369
ूं: 2367
कु: 2363
▁लगभग: 2358
▁सूचना: 2358
▁शा: 2358
ित्र: 2357
▁निर्देश: 2354
C: 2354
द्योग: 2353
▁करवा: 2352
%: 2347
ीर: 2347
फी: 2344
▁न्यू: 2343
▁लगाया: 2342
श्मीर: 2340
▁पत्रकार: 2337
यू: 2336
▁शेयर: 2336
▁मूल: 2331
▁बने: 2331
▁चाहते: 2329
तु: 2328
टन: 2327
▁रोक: 2327
▁चुकी: 2322
▁अच्छा: 2318
▁मुद्: 2316
्रेस: 2313
▁फे: 2311
लब: 2311
ठन: 2310
ंद्र: 2310
▁30: 2309
▁उत्पा: 2307
▁अभि: 2302
▁आदेश: 2300
डर: 2299
▁गल: 2297
यी: 2297
▁क्यों: 2297
▁चलते: 2297
x: 2295
▁लगातार: 2293
▁देखा: 2288
▁कहते: 2287
योग: 2287
▁शी: 2285
▁जय: 2284
▁कार्रवाई: 2282
▁औ: 2281
वादी: 2276
▁संप: 2268
ूँ: 2267
वल: 2267
▁परीक्षा: 2266
्रीय: 2260
▁लगी: 2250
▁भाव: 2248
▁जवाब: 2247
▁14: 2247
▁शिकायत: 2247
▁अति: 2245
▁सांस: 2245
▁विधायक: 2243
▁प्रशासन: 2243
गल: 2242
मन: 2241
▁फर: 2241
▁राशि: 2241
▁थीं: 2238
▁बनाया: 2231
रात: 2230
ायल: 2229
▁महिलाओं: 2228
▁कंपन: 2227
▁सै: 2227
▁व्यवस्था: 2216
श्च: 2212
पु: 2212
▁मेरी: 2212
▁उम: 2209
▁रोज: 2205
▁सेना: 2202
▁वृ: 2199
▁सर्: 2199
▁रखने: 2198
िकी: 2198
▁विभिन्न: 2197
▁लक्ष: 2193
रिक: 2193
▁फोन: 2193
▁तरी: 2191
वर्: 2188
▁क्ष: 2186
▁मना: 2185
▁सही: 2179
▁D: 2174
▁उपलब्ध: 2172
▁देखने: 2169
ूब: 2167
▁दौ: 2167
सार: 2165
▁सहित: 2163
यों: 2159
ृति: 2156
▁फैसला: 2154
▁वाह: 2153
▁उपयोग: 2151
एफ: 2146
▁किसानों: 2143
▁तेज: 2141
ूत: 2141
▁हरियाणा: 2139
▁ब्ल: 2139
▁अमेरिका: 2136
▁परेश: 2135
▁चीन: 2134
कल: 2132
▁आख: 2131
ष्य: 2131
▁यु: 2130
▁गये: 2129
▁क्रिकेट: 2123
िज: 2122
▁स्क: 2117
▁चर्चा: 2112
▁वन: 2111
▁लिखा: 2110
रों: 2107
K: 2105
▁न्याया: 2104
वरी: 2104
▁13: 2104
▁बच्चे: 2104
तान: 2103
▁आतंक: 2103
▁लगता: 2102
वेदन: 2101
▁उच्च: 2100
▁प्रश: 2100
▁भे: 2100
▁प्रयास: 2098
्वी: 2097
▁पिता: 2096
ंख: 2095
▁संय: 2092
च्या: 2091
ांत: 2088
नल: 2087
▁महत्व: 2086
राव: 2086
चल: 2086
▁मिलने: 2085
": 2085
▁इस्: 2081
▁अवसर: 2073
▁प्रकाश: 2072
इल: 2071
▁इंटर: 2070
▁स्म: 2068
▁इंड: 2067
▁बेट: 2067
▁16: 2066
▁सामान: 2064
▁बनाए: 2057
िटी: 2055
▁चुका: 2055
▁पक: 2054
▁कानून: 2054
थम: 2049
ंटे: 2049
किल: 2045
ॉल: 2044
▁यात्रा: 2044
▁चा: 2043
तिहास: 2041
बू: 2041
U: 2039
व्य: 2039
▁गिरफ्तार: 2037
ूक: 2037
..: 2031
▁छोट: 2030
गे: 2029
▁पट: 2028
ोस: 2026
▁कीमत: 2025
गम: 2022
▁स्वास्थ्य: 2022
▁बोल: 2021
ज्ञान: 2021
▁सम्मान: 2020
रिया: 2017
क्शन: 2016
ांस: 2015
▁पक्ष: 2015
▁मुख: 2014
▁नियम: 2012
▁नंबर: 2011
▁जिसे: 2011
बंधन: 2010
ड़ों: 2010
नर: 2008
▁जरूरत: 2007
▁सदस्य: 2007
▁पोस्ट: 2005
▁आयोजित: 2004
▁अच्छी: 2004
▁हासिल: 2004
चर: 1997
ंह: 1996
िली: 1995
▁बिहार: 1994
▁पत्नी: 1994
▁सचिव: 1993
तंत्र: 1992
▁पहुंचे: 1992
न्ह: 1991
▁पड़ा: 1990
्यालय: 1989
▁50: 1989
▁सम्: 1988
▁सफ: 1988
▁शो: 1988
▁यून: 1987
▁भाई: 1985
▁विध: 1984
पक्ष: 1983
कत: 1978
क़: 1977
गार: 1976
▁सोमवार: 1974
ण्ड: 1974
भार: 1968
▁कमी: 1967
▁तय: 1966
▁शिक्ष: 1965
▁अहम: 1965
गू: 1964
▁पीछे: 1960
▁आपकी: 1960
▁महारा: 1957
▁विश्: 1957
इस: 1955
भर: 1954
▁किस: 1953
जि: 1952
▁निवेश: 1950
▁लोकसभा: 1950
▁माध्यम: 1949
▁माना: 1947
ार्ड: 1946
▁सड़क: 1943
ूह: 1939
▁पंजाब: 1937
▁ठीक: 1935
लिया: 1935
हरी: 1935
पित: 1934
▁गिर: 1930
करी: 1930
▁इत: 1927
▁हों: 1926
▁...: 1925
▁पाल: 1924
▁विकेट: 1923
▁सित: 1920
▁लो: 1920
ोष: 1920
▁स्वा: 1919
▁दिस: 1919
▁कारो: 1918
▁घोषणा: 1915
▁भु: 1915
▁उम्मीद: 1913
▁टेस्ट: 1911
▁पेट: 1911
द्धि: 1910
▁मंगलवार: 1910
▁कित: 1908
▁बच: 1906
▁सोच: 1906
तरा: 1905
▁बेह: 1904
▁स्था: 1902
▁ग्रामीण: 1902
हाल: 1902
▁राष्ट्रपति: 1901
हीं: 1901
रान: 1899
▁अप्र: 1898
धन: 1897
टना: 1897
▁अल: 1895
▁देव: 1895
V: 1894
खंड: 1890
▁नव: 1888
▁नरेंद्र: 1887
ष्ण: 1884
▁शुक्रवार: 1881
जल: 1881
किंग: 1879
▁शि: 1877
▁वक्त: 1875
▁धो: 1872
▁कार्यकर्: 1872
▁गंभीर: 1870
ॉप: 1870
▁बोर्ड: 1869
▁आरोपी: 1868
▁वालों: 1865
▁जून: 1864
▁आवश्यक: 1864
▁उम्मीदवार: 1862
तरी: 1860
R: 1860
▁जाये: 1859
▁अंत: 1859
▁थो: 1859
तियों: 1858
ार्म: 1858
ज्: 1857
तार: 1856
▁राजनीति: 1855
डल: 1852
▁सुविधा: 1850
W: 1850
—: 1850
▁जन्म: 1850
▁राजनीतिक: 1849
▁कहीं: 1849
▁तीस: 1849
▁पीएम: 1848
टल: 1844
▁मुकाब: 1842
मता: 1842
▁पर्: 1842
स्थित: 1840
▁17: 1840
▁तस्: 1839
बाजी: 1839
▁फोट: 1835
▁राष्ट्र: 1835
▁श्र: 1834
▁जनवरी: 1833
▁निकल: 1833
वें: 1833
▁विष: 1832
ोरी: 1832
▁चुन: 1831
▁समिति: 1831
ंडल: 1830
▁अंग: 1829
▁रहते: 1829
▁बिल: 1826
िशा: 1826
▁हाई: 1826
▁नही: 1824
▁एज: 1823
▁तम: 1822
न्‍: 1820
▁मज: 1817
▁/: 1814
▁निकाल: 1813
र्जी: 1808
▁क्ल: 1806
त्ति: 1804
▁शनिवार: 1801
▁ऊपर: 1800
B: 1800
▁जिम: 1799
▁वरिष्ठ: 1799
▁देशों: 1798
रल: 1797
▁एक्स: 1795
लेज: 1794
▁रै: 1794
▁भारी: 1793
▁ताकि: 1793
▁बुधवार: 1793
▁कट: 1793
▁आर्थिक: 1792
▁सात: 1792
▁होकर: 1791
▁विवाद: 1789
ग्री: 1789
▁रविवार: 1788
▁आयोग: 1787
▁चाल: 1786
▁जमा: 1781
्ष: 1781
▁मिन: 1779
च्: 1778
▁हिस्सा: 1776
▁सीमा: 1776
▁खरीद: 1776
D: 1775
▁बेहतर: 1773
िकल: 1772
▁गौर: 1772
▁फाइ: 1771
▁सहाय: 1770
चाल: 1768
▁बदला: 1766
▁जल्द: 1765
लू: 1761
▁नेताओं: 1760
▁2019: 1759
▁देर: 1759
),: 1755
जूद: 1753
कारी: 1753
त्मक: 1750
ॅ: 1748
▁भगवान: 1747
वत: 1747
▁नागरिक: 1745
▁राय: 1745
न्हें: 1745
▁लॉ: 1745
▁रण: 1743
▁सोशल: 1742
▁केंद्रीय: 1741
धे: 1740
▁अदाल: 1739
▁टै: 1739
ट्र: 1739
▁याद: 1737
▁वी: 1737
▁गुज: 1737
खन: 1735
▁शरीर: 1735
▁हमारी: 1733
ल्स: 1733
▁इतना: 1733
ामा: 1732
▁सुप्री: 1731
▁देना: 1730
▁वर्ग: 1729
पक: 1729
▁कदम: 1726
ूबर: 1725
▁24: 1723
‘: 1722
▁लौ: 1721
▁पड़े: 1718
तृ: 1718
▁पो: 1714
ंगी: 1713
▁अभियान: 1713
ृह: 1712
▁मोह: 1711
▁शब्: 1710
क्रिया: 1709
▁स्वी: 1708
▁ज्ञ: 1708
▁मार्च: 1707
▁निर्ण: 1707
ंभ: 1705
▁तेल: 1705
▁लगाने: 1704
ील: 1704
▁भर्: 1704
क्षित: 1703
ायत: 1701
▁मोबा: 1701
जिक: 1701
▁गण: 1700
▁मंत्रालय: 1700
क्ता: 1698
▁शाम: 1697
▁थाना: 1694
▁उसी: 1693
▁अगले: 1692
▁मॉ: 1691
▁अर्थ: 1690
ानीय: 1690
▁पाए: 1689
निया: 1685
▁बाव: 1684
▁समर्थन: 1684
▁अधिकार: 1684
फ्: 1683
▁पि: 1681
कट: 1676
▁मृत: 1676
▁मजबू: 1675
▁वापस: 1675
क्‍: 1674
ोप: 1674
विद्यालय: 1674
लय: 1673
ंसा: 1667
▁शुरुआत: 1666
▁हमेशा: 1665
▁जेल: 1665
शि: 1662
शनल: 1661
फे: 1660
ांति: 1660
वुड: 1660
▁सहयोग: 1658
▁एयर: 1657
▁पहचान: 1656
▁साफ: 1656
▁पति: 1653
०: 1653
ुओं: 1653
▁21: 1650
ोंने: 1650
▁बल्ले: 1649
दीप: 1647
▁ठा: 1643
▁बनी: 1641
▁पसंद: 1640
चारियों: 1639
▁हिंद: 1637
J: 1637
▁दोस्त: 1636
▁सल: 1636
दाय: 1635
रु: 1635
▁आयोजन: 1635
▁नुक: 1626
पो: 1626
▁मुला: 1625
▁दक्षि: 1621
▁तर: 1619
वेश: 1605
ऋ: 1587
र्थ: 1579
j: 1564
▁दूस: 1563
माण: 1563
▁सच: 1559
▁किसान: 1556
*: 1547
तीय: 1531
▁माम: 1528
स्तान: 1521
N: 1519
▁फैस: 1514
ासन: 1507
>: 1499
▁द्: 1497
नाव: 1495
;: 1492
]: 1487
▁कान: 1482
▁न्या: 1468
▁प्रधान: 1464
१: 1462
दि: 1448
▁आह: 1441
िले: 1437
जार: 1435
....: 1434
ंगल: 1427
(: 1423
▁फिल: 1416
#: 1407
मत: 1407
[: 1399
पोर्ट: 1382
रि: 1378
च्च: 1377
पति: 1366
▁बच्च: 1362
▁हिस्: 1362
ोजना: 1361
▁अच्छ: 1358
ायक: 1356
▁व्यव: 1350
मंत्री: 1348
▁पं: 1333
▁शिक: 1314
▁बैं: 1268
▁विश: 1267
श्य: 1251
▁जरूर: 1241
▁मंत्र: 1230
▁घोष: 1208
▁व्या: 1206
▁पत्: 1204
ालय: 1191
▁अमेर: 1185
▁दौर: 1184
▁तैय: 1158
▁पार्ट: 1147
▁तै: 1141
र्फ: 1134
भाग: 1127
▁शे: 1113
▁सम्म: 1106
ताल: 1102
ांच: 1098
काश: 1092
क्रम: 1083
सभा: 1067
▁भार: 1056
फ्त: 1041
▁पिछ: 1037
२: 1036
▁नर: 1031
▁खरी: 1025
▁सदस: 998
हम: 993
झे: 992
▁जग: 981
ताब: 979
▁आत: 971
शल: 971
▁सद: 941
चान: 938
ोड़: 918
ुआ: 908
▁पाकि: 890
▁जल्: 882
श्म: 876
▁समर्थ: 871
▁रवि: 870
▁पुल: 858
▁अध्य: 855
▁विरो: 851
िति: 848
द्यालय: 847
किन: 837
्यान: 835
ेष: 826
z: 818
▁रुप: 814
ऩ: 814
H: 812
ख्या: 798
ड़क: 790
▁पहु: 789
▁राह: 772
▁परी: 770
▁वाप: 755
Y: 751
▁मही: 746
▁करी: 725
यान: 724
»: 723
र्चा: 712
▁कंप: 706
दम: 705
▁उन्ह: 669
मुख: 668
▁फीस: 666
▁शर्: 653
यास: 650
ीड: 649
्यादा: 649
लिए: 642
माल: 634
ऐ: 595
▁गिरफ्त: 587
▁कांग: 586
हां: 583
ेंद: 581
५: 560
▁भग: 517
ेत्र: 516
औ: 513
▁शुर: 511
▁अद: 506
ऑ: 498
वारा: 498
▁बिज: 491
▁मद: 470
दर्शन: 460
प्री: 453
शत: 447
▁मंगल: 445
▁गं: 437
q: 436
+: 432
ï: 428
▁विधान: 426
▁क्रिक: 423
ीस: 422
▁ज्: 422
▁शरी: 418
▁बल्: 418
▁शुरुआ: 415
X: 412
▁जवा: 405
▁वाल: 396
Q: 395
@: 390
३: 389
ीक: 386
▁गां: 384
&: 379
=: 369
िल्ली: 368
•: 363
बह: 363
▁आव: 361
▁जन्: 339
भि: 335
▁शुक्र: 328
४: 327
स्या: 323
▁पस: 321
ुड: 318
_: 318
–: 316
ङ: 314
पूर्: 303
ियान: 301
▁अस्प: 297
म्मी: 292
▁शनि: 292
▁उपलब्: 289
Z: 279
ऱ: 279
जपा: 274
६: 267
{: 265
▁सोम: 262
८: 259
$: 257
७: 247
▁अला: 238
▁पीछ: 238
▁पंजा: 236
हाय: 231
▁मंद: 227
▁कोश: 219
ंबई: 199
}: 197
ॊ: 197
९: 193
जह: 185
ञ: 182
►: 178
हास: 175
काब: 171
▁दक्ष: 167
॥: 164
▁आयोज: 161
▁बुध: 160
▁हरिया: 157
·: 157
“: 153
é: 151
भग: 149
विधा: 147
⁄: 146
ंत्री: 145
__: 145
भीर: 144
̈: 141
श्यक: 138
à¤: 137
स्थ्य: 133
Ó: 131
▁नागर: 129
ऽ: 126
ेशा: 119
▁वीड: 118
जेपी: 116
▁उपल: 105
<: 102
▁राष्ट: 100
॰: 97
ॆ: 97
`: 94
›: 93
\: 88
→: 88
©: 87
तेमाल: 84
▁वरि: 84
॑: 84
●: 77
▁हास: 72
ॐ: 71
ऍ: 67
▁मीड: 62
ऎ: 61
भिन्न: 61
▁आर्थ: 60
Þ: 59
«: 57
ामीण: 48
▁माध्य: 45
ांकि: 45
▁आरो: 42
▁कार्र: 41
×: 40
★: 40
₹: 39
ॢ: 38
~: 38
ä: 37
▁राजनी: 35
▁केंद: 34
â: 30
==: 29
μ: 29
á: 29
ऒ: 29
́: 28
è: 26
}}: 25
↑: 24
ü: 24
и: 23
à: 23
­: 23
в: 22
‚: 22
λ: 21
®: 21
°: 21
⠀⠀⠀⠀⠀⠀⠀⠀⠀⠀⠀⠀: 21
ö: 20
å: 20
ó: 20
前: 19
९७: 19
α: 19
^: 19
í: 18
म्मीद: 18
−: 18
३४: 18
९४७: 17
♥: 17
९६: 17
}@: 16
§: 16
ç: 16
£: 15
▁मुताब: 15
९९: 15
++: 14
̈à¤: 14
ॄ: 14
३६: 13
७४: 13
̧: 13
८६: 13
७९: 13
९८: 13
q_: 12
ê: 12
३८: 12
॒: 12
{{: 12
====: 12
не: 11
६९: 11
✔: 11
←: 11
३७: 11
个月: 10
}}@: 10
ñ: 10
३९: 10
′: 10
±: 10
中文: 10
: 10
➤: 10
الله: 10
что: 9
४३: 9
ÓÓ: 9
বাংলা: 9
▼: 9
Ÿ: 9
€: 9
``: 9
३३: 9
ऽऽ: 9
آهنگ: 9
ॽ: 8
XX: 8
♦: 8
Û: 8
८३: 8
४४: 8
४६: 8
४८: 8
७३: 8
̧à¤: 8
÷: 8
‬: 8
६४: 8
на: 8
ᆬ: 8
९८९: 8
🙂: 8
￼: 7
̄à¤: 7
о: 7
६३: 7
à¤¬à¤: 7
██: 7
Ñ: 7
‪: 7
по: 7
: 7
à¤®à¤: 7
ą: 7
с: 6
年: 6
̄: 6
≤: 6
▪: 6
‡: 6
🙏: 6
⇒: 6
ă: 6
XXX: 6
४९: 6
✍: 6
ø: 6
♠: 6
ę: 6
६६: 6
➡: 5
தமிழ்বাংলাമലയാളം: 5
É: 5
′′: 5
८४: 5
९९९: 5
日本語: 5
⃣: 5
от: 5
à¤œà¤: 5
६७: 5
à¤•à¤: 5
४७: 5
̈à¥€: 5
العربية: 5
блюда: 5
పాన్: 5
७७: 5
८९: 5
ऽऽऽ: 5
صلى: 5
عليه: 5
وسلم: 5
مجتبی: 5
çã: 5
Русский: 5
ॠ: 5
ã: 4
७६: 4
☸️: 4
〡: 4
😂: 4
„: 4
В: 4
☆★: 4
■: 4
: 4
९६९: 4
à¤°: 4
【: 4
】: 4
ǀ: 4
ऽऽऽऽ: 4
కార్డు: 4
‹: 4
à¥à¤: 4
будет: 4
Ελληνικά: 4
æ: 4
💘: 4
९८४: 4
ş: 4
ı: 4
🎯: 4
===: 4
६८: 4
Δ: 4
ы: 4
رضي: 4
عنه: 4
à¤¿à¤: 4
८७: 4
à¥€: 4
̄à¥‹à¤‚: 4
॰ऍ: 4
}}<: 4
○: 4
это: 3
עברית: 3
➌: 3
بوصلتك: 3
طريقك: 3
نحو: 3
احتراف: 3
البرمجة: 3
بسهولة: 3
: 3
ॲ: 3
à¤¤: 3
: 3
ð: 3
✉✉: 3
ī: 3
९३: 3
č: 3
как: 3
ā: 3
à¥‡à¤: 3
à¤¬à¥à¤: 3
à¤°à¤: 3
ગુજરાતી: 3
३७९: 3
८४८: 3
॥३॥: 3
😉: 3
◆: 3
🇮🇳: 3
š: 3
➖: 3
Блюда: 3
из: 3
९९८: 3
которых: 3
или: 3
దరఖాస్తు: 3
జారీ: 3
😛: 3
к: 3
чтобы: 3
ế: 3
ệ: 3
à¤®à¥à¤: 3
Α: 3
их: 3
Српски: 3
简体: 3
¡: 3
: 3
९९४: 3
९४६: 3
♣: 3
дело: 3
پښتو: 3
√: 3
९७६: 3
از: 3
کبیریدانلود: 3
جدید: 3
९९७: 3
: 3
ਪ੍ਰਭੂ: 3
ਦੀ: 3
}}{{: 3
¿: 3
ऴ: 3
९८३: 3
日: 3
谢家院子: 3
☝: 3
Е: 3
был: 2
天: 2
я: 2
ошибка: 2
почему: 2
९७७: 2
⬇️: 2
===========================================================================================: 2
Z+: 2
简体中文: 2
оо: 2
е: 2
і: 2
: 2
९७९: 2
þ: 2
θ: 2
ää: 2
९३४: 2
руб: 2
до: 2
९३६: 2
@X: 2
ᆞY: 2
流行: 2
русский: 2
à¤¦à¤: 2
à¤μà¥€: 2
à¥à¤°: 2
―: 2
QQ: 2
˸: 2
في: 2
à¤‚à¤: 2
à¥‰à¤: 2
à¥à¤«: 2
à¥€à¤: 2
̄à¤μà¤: 2
@Y: 2
à¥‹à¤‚: 2
à¤à¤¡à¤: 2
à¥à¤°à¤: 2
Ã©: 2
Български: 2
ú: 2
à¤§à¥‹à¤: 2
мы: 2
время: 2
для: 2
пять: 2
➣: 2
<=: 2
вижу: 2
но: 2
брокера: 2
чем: 2
того: 2
этой: 2
лишь: 2
за: 2
года: 2
менее: 2
всегда: 2
работает: 2
Для: 2
ప్రతి: 2
బ్యాంక్: 2
లో: 2
ఖాతా: 2
కార్డును: 2
కోసం: 2
రోజులలో: 2
చేస్తుంది: 2
ఆదాయపన్నుశాఖ: 2
à¤­à¤: 2
ų: 2
пенсионных: 2
лет: 2
а: 2
отчислять: 2
год: 2
больше: 2
государства: 2
७३३: 2
­­: 2
₹=: 2
: 2
💘💖💝: 2
à¥à¤°à¤¤à¤¿à¤·à¥à¤: 2
à¤¡à¤: 2
à¥à¤œà¤: 2
à¤ˆ: 2
̧à¥‡: 2
à¤®à¥‡à¤: 2
९७४: 2
ऱङ: 2
XZ: 2
ᆞ: 2
३९८: 2
‐: 2
३६३: 2
будущем: 2
были: 2
&q: 2
: 2
ả: 2
об: 2
убийстве: 2
этого: 2
👉: 2
९३८: 2
Ð: 2
: 2
проститутки: 2
очень: 2
дешево: 2
москва: 2
८८: 2
❦: 2
______________: 2
: 2
Создать: 2
форум: 2
جوان: 2
آهنگدانلود: 2
برگرد: 2
کبیری: 2
<<: 2
̧à¤‚à¤: 2
à¤¶à¤: 2
ë: 2
çõ: 2
ł: 2
ಕನ್ನಡ: 2
ภาษาไทย: 2
: 2
९८६: 2
〜: 2
<<<: 2
сейчас: 2
Новгород: 2
Владимир: 2
ਪਤੀ: 2
ਦੇ: 2
_ï: 2
: 2
३३७: 2
qq: 2
: 2
娱乐: 2
Č: 2
à¥à¤°à¤: 2
à¤®: 2
à¤¤à¤: 2
à¤μà¤: 2
à¤¦: 2
̈à¤¿à¤•: 2
९४८: 2
~~: 2
॥<: 2
தமிழ்: 2
తెలుగు: 2
ž: 2
με: 2
και: 2
☺: 2
繁體: 2
ệ: 2
⠀⠀⠀⠀⠀⠀⠀⠀⠀⠀: 2
⠀⠀⠀⠀: 2
९६४: 2
Υ: 2
৷৷: 2
😃: 2
९४९: 2
можно: 2
: 1
Девочки: 1
недавно: 1
Одноклассниках: 1
увидела: 1
работы: 1
одной: 1
вязальщицы: 1
потеряла: 1
покой: 1
дар: 1
речи: 1
могу: 1
поделиться: 1
вами: 1
ибо: 1
ШЕДЕВРЫ: 1
Сразу: 1
уточню: 1
этот: 1
пост: 1
создан: 1
разрешения: 1
автора: 1
работ: 1
За: 1
ей: 1
большое: 1
спасибо: 1
ù: 1
: 1
беларускі: 1
音乐: 1
: 1
скачиваю: 1
там: 1
написано: 1
разбора: 1
пакета: 1
: 1
☝🏻☝🏻☝🏻☝🏻: 1
○○: 1
↓: 1
ïq: 1
̈à¤¿à¤°à¥à¤: 1
à¥à¤°à¤¬à¤‚à¤§à¤•: 1
<丶`: 1
∀: 1
ω: 1
✫: 1
الثانوية: 1
العامة: 1
üß: 1
४४७: 1
😜❤️: 1
८४६: 1
❤❤😎: 1
🙏💪💪: 1
еу: 1
р: 1
९७३: 1
Þú: 1
Xq: 1
ዓባይ: 1
ʿ: 1
النيل: 1
الأزرق: 1
Ā: 1
: 1
フィギュア・ホビー商品は、メーカー都合により発売日が延期される場合があります。: 1
発売日が延期された場合、: 1
メールにて新しい発売日をお知らせします。また、発売日延期に伴いキャンセル期限も変更されます。: 1
最新のキャンセル期限は上記よりご確認ください。また、メーカー都合により商品の仕様が変更される場合があります。あらかじめご了承ください。: 1
\_$: 1
Покупаем: 1
вывозим: 1
старые: 1
чугунные: 1
радиаторы: 1
Наши: 1
грузчики: 1
быстро: 1
аккуратно: 1
вынесут: 1
загрузят: 1
Цены: 1
✡: 1
: 1
८९७: 1
игровой: 1
клуб: 1
который: 1
основан: 1
году: 1
Это: 1
виртуальный: 1
портал: 1
посвященный: 1
азартным: 1
играм: 1
таких: 1
популярных: 1
провайдеров: 1
🙋: 1
à¤‡à¤®à¥à¤¤à¤¿à¤: 1
à¤šà¥à¤: 1
à¤®à¥‡à¤¡à¤¿à¤•à¤: 1
à¥‡à¤œà¥‡à¤Ÿ: 1
à¤•à¥‰à¤: 1
̈à¤μà¥‡: 1
à¤§à¤: 1
à¥à¤°à¤¶à¤¿à¤•à¥à¤·à¥: 1
à¤§à¤°à¥à¤®à¤: 1
à¤°à¥à¤¥: 1
à¥‡à¤°à¤¿à¤: 1
ś: 1
ج: 1
س: 1
أل: 1
بريفيه: 1
تستقبل: 1
أزياء: 1
ايلي: 1
صعب: 1
للهوت: 1
كوتور: 1
قصر: 1
الصنوبر: 1
وتضيء: 1
ليالي: 1
بيروت: 1
إطار: 1
دعم: 1
اليونيسيف: 1
८३७४: 1
⇛: 1
८३९: 1
✅⚜: 1
à¥‡à¤Ÿà¤°à¤®à¥ˆà¤: 1
à¤¶à¤¿à¤: 1
̈à¤¿à¤•à¥‹à¤Ÿà¥€à¤: 1
̈à¤¦à¥‡à¤: 1
à¤°à¤¿à¤μà¤: 1
à¤¬à¤°à¤: 1
̧à¥à¤μà¤: 1
à¤¦à¤¿à¤·à¥à¤Ÿ: 1
à¤à¤¡à¥‹à¤: 1
à¤°à¥‹à¤¬à¤¿à¤: 1
à¤‚à¤¡à¤•à¥‹à¤·: 1
à¤¬à¥ˆà¤‚à¤•: 1
à¤¡à¥à¤: 1
à¤μà¤¿à¤·à¤: 1
̧à¥à¤¤à¥: 1
à¤•à¥à¤: 1
à¥‹à¤·à¤£: 1
à¤œà¥‚à¤: 1
à¥à¤°à¥‡à¤: 1
à¥ˆà¤: 1
à¥: 1
à¤°à¤•: 1
̧à¤°à¥à¤: 1
à¤°à¥‹à¤®: 1
à¤šà¤: 1
̄à¥‚à¤: 1
à¤¬à¥€à¤®à¤: 1
à¤μà¥€à¤¡à¤¿à¤: 1
̄à¥‹à¤: 1
à¤«à¥€: 1
à¤·à¥à¤Ÿà¥à¤°à¤­à¤•à¥à¤¤à¤¿: 1
̈à¥à¤§à¤®à¤: 1
̧à¥‚à¤•à¥à¤·à¥à¤®: 1
ő: 1
ű: 1
ß: 1
ДСТУ: 1
∞}: 1
YQ: 1
à¤•à¤°à¤•à¥‚à¤•: 1
̧à¥à¤°à¤•à¥à¤·à¤¿à¤¤: 1
ੴ: 1
॥४॥: 1
७६८: 1
४६७: 1
४६८: 1
à¤­à¥€à¤¤à¤°à¥€: 1
Ã: 1
à¤à¤®à¥à¤: 1
̄à¤°: 1
̧à¤‚à¤¡à¥‡: 1
८६९: 1
について: 1
💸: 1
: 1
«Мы: 1
обязаны: 1
выиграть: 1
титул: 1
Да: 1
данный: 1
момент: 1
являемся: 1
фаворитами: 1
однакο: 1
намерены: 1
стать: 1
ими: 1
во: 1
турнира: 1
Третье: 1
четвёртое: 1
место: 1
нехороший: 1
результат: 1
страны: 1
кοторая: 1
выиграла: 1
чемпионатов: 1
мира: 1
сообщил: 1
специалист: 1
разговоре: 1
бразильскими: 1
ਪੰਜਾਬੀ: 1
Цікаво: 1
$×: 1
: 1
ə: 1
Φ: 1
॔: 1
∝: 1
९६८: 1
廬: 1
Вложенные: 1
рубрики: 1
Травы: 1
кулинарии: 1
Специи: 1
Соусы: 1
маринады: 1
Салаты: 1
Рыбные: 1
Рецепты: 1
Алисы: 1
Приправы: 1
Праздничные: 1
Постные: 1
Пасха: 1
Напитки: 1
Мясные: 1
Книги: 1
Каши: 1
Из: 1
творога: 1
Закуски: 1
Заготовки: 1
Десерты: 1
Выпечка: 1
со: 1
шпинатом: 1
кабачками: 1
баклажанами: 1
птицы: 1
Антикризисная: 1
кулинария: 1
९९६: 1
👍: 1
Больше: 1
Читаю: 1
комменты: 1
разных: 1
сайтах: 1
многие: 1
пришли: 1
поиграть: 1
делает: 1
трейдинг: 1
системе: 1
только: 1
прибыльным: 1
весьма: 1
комфортным: 1
Поскольку: 1
сертификация: 1
дает: 1
определенные: 1
преимущества: 1
клиентам: 1
также: 1
следует: 1
узнать: 1
подробнее: 1
прежде: 1
выбирать: 1
иного: 1
Данный: 1
процесс: 1
оказался: 1
довольно: 1
трудоемким: 1
затратным: 1
причине: 1
отследили: 1
результаты: 1
два: 1
месяца: 1
сентябрь: 1
октябрь: 1
Тем: 1
Я: 1
ни: 1
могла: 1
понять: 1
мой: 1
торговый: 1
план: 1
какие: 1
системы: 1
оплаты: 1
Олимп: 1
Трейд: 1
совершаю: 1
ошибки: 1
эффективного: 1
управления: 1
средствами: 1
достаточно: 1
доверить: 1
средства: 1
управляющему: 1
新台幣: 1
港幣: 1
泰銖: 1
美元: 1
韓圜: 1
人民幣: 1
澳幣: 1
紐元: 1
加拿大幣: 1
英鎊: 1
歐元: 1
挪威克朗: 1
瑞典幣: 1
丹麥克朗: 1
瑞士法朗: 1
捷克克朗: 1
盧布: 1
新加坡幣: 1
澳門幣: 1
馬來幣: 1
菲國比索: 1
以色列塞克: 1
雷瓦爾: 1
阿根廷比索: 1
墨西哥披索: 1
印度幣: 1
७८: 1
బ్యాంకుల్లో: 1
రూ: 1
వేలకు: 1
పైగా: 1
నిర్వహించే: 1
ఆర్థిక: 1
లావాదేవీకీ: 1
శాశ్వతఖాతా: 1
సంఖ్య: 1
అవసరం: 1
తాజాగా: 1
ప్రారంభించాలన్నా: 1
పొందుపర్చాలని: 1
కొంతమంది: 1
బ్యాంకర్లు: 1
ఒత్తిడి: 1
చేస్తున్నారు: 1
చేసుకున్న: 1
లేదా: 1
మాత్రమే: 1
ఆదాయపన్ను: 1
శాఖ: 1
ఆన్: 1
లైన్: 1
చేసుకుని: 1
రెండురోజుల్లోనే: 1
శాశ్వత: 1
సంఖ్యను: 1
తెలుసుకునే: 1
వీలుంది: 1
దీనివల్ల: 1
అత్యవసర: 1
సమయంలో: 1
నెంబరు: 1
చెప్పేందుకు: 1
ఎంతగానో: 1
ఉపయోగపడే: 1
అవకాశాలు: 1
ఉన్నాయి: 1
లావాదేవీలు: 1
పెట్టుబడులు: 1
స్థిరాస్తి: 1
కొనుగోలు: 1
అమ్మకాలలో: 1
తప్పనిసరి: 1
సార్వత్రికమైన: 1
అంకెలు: 1
అల్ఫాన్యూమరిక్: 1
పన్ను: 1
చెల్లింపుదారునకు: 1
ఈ: 1
రాత: 1
పూర్వకంగా: 1
చేసుకుంటే: 1
చేస్తారు: 1
ఎన్: 1
ఎ్: 1
సడీఎల్: 1
వెబ్: 1
సైట్: 1
ద్వారా: 1
అవకాశం: 1
కల్పిస్తోంది: 1
~~~~~~~~~~~~: 1
~~~~~~~~~~: 1
齿轮: 1
色情: 1
中国: 1
à¥à¤: 1
̈à¤°à¥à¤: 1
☝☺: 1
❤: 1
条款: 1
隐私权: 1
往来: 1
😱: 1
🙈🙈🙈🙈: 1
🔫: 1
⚫: 1
Минэкономразвития: 1
России: 1
подготовил: 1
очередной: 1
проект: 1
реформы: 1
накоплений: 1
Теперь: 1
предполагается: 1
течение: 1
первых: 1
пяти: 1
государство: 1
пенсионным: 1
отчислениям: 1
работника: 1
добавлять: 1
такую: 1
же: 1
величине: 1
сумму: 1
следующие: 1
суммы: 1
отчислений: 1
далее: 1
участвовать: 1
программе: 1
работнику: 1
нужно: 1
написать: 1
заявление: 1
зарплаты: 1
Работник: 1
своему: 1
желанию: 1
может: 1
пенсию: 1
Однако: 1
доля: 1
участия: 1
накоплениях: 1
тыс: 1
Предполагает: 1
управлять: 1
этими: 1
деньгами: 1
будут: 1
негосударственные: 1
пенсионные: 1
фонды: 1
управляющие: 1
компании: 1
сообщает: 1
газета: 1
Ведомости: 1
و: 1
د: 1
ن: 1
: 1
=६७₹: 1
Å: 1
👩🏻: 1
👿: 1
💖💝: 1
YZ: 1
à¤‚à¤¡à¤: 1
̃à¤¿à¤°à¤: 1
à¤®à¤°à¤œà¥€à¤¤: 1
à¤¿à¤¤: 1
à¤®à¤®à¥à¤®à¥€: 1
à¤°à¥€: 1
à¤à¤°à¤: 1
à¤μà¥à¤: 1
̧à¥à¤¥à¤¿à¤¤: 1
à¤•à¤£: 1
à¤«à¤°à¤μà¤°à¥€: 1
à¤°à¥‡à¤¡à¤¿à¤•à¤: 1
à¤¬à¤¡à¤: 1
à¤¬à¤§à¤: 1
à¤°à¥à¤¥à¤®à¤¿à¤¤à¤¿: 1
̈à¤¬à¥€: 1
à¤®à¤¦à¤°à¤: 1
à¤•à¤μà¤•: 1
̄à¥‹à¤®à¥€à¤¡: 1
à¤°à¤¿à¤¶à¥à¤μà¤¤: 1
̈à¥€à¤°à¤: 1
à¤œà¤®à¤: 1
à¤°à¥à¤: 1
à¤†à¤°à¥à¤: 1
à¥‹: 1
à¤•à¥à¤: 1
音読み: 1
訓読み: 1
६६९: 1
😮: 1
😏😏: 1
🤓🤓: 1
😎: 1
ғ: 1
ร: 1
⊅: 1
ท: 1
きょうとウェルカム会員に登録をすると、次回からのご注文の際に住所等の入力の手間が省けます。: 1
また、贈り物の送付先をあらかじめ複数登録することができ便利です。: 1
その他、「ご利用状況」や「お気に入り」「ページ閲覧履歴」等の便利機能をご利用いただけますので、ぜひこの機会に、ご登録ください。: 1
無料: 1
°°°: 1
ğ: 1
éq: 1
❒: 1
━━━━━━━━━━━━━━━━━━: 1
⋆: 1
\\: 1
رام: 1
Q&: 1
३६६: 1
Также: 1
социологи: 1
задали: 1
россиянам: 1
вопрос: 1
том: 1
мнению: 1
ждет: 1
семью: 1
Тут: 1
россияне: 1
стоит: 1
отметить: 1
более: 1
оптимистичны: 1
прогнозировании: 1
будущего: 1
всего: 1
негативные: 1
тенденции: 1
все: 1
равно: 1
наметились: 1
Так: 1
подавляющее: 1
большинство: 1
опрошенных: 1
заявили: 1
видят: 1
каких: 1
либо: 1
подвижек: 1
улучшению: 1
жизни: 1
семьи: 1
४३४: 1
९९३: 1
======================: 1
ગુજરાતીاردوಕನ್ನಡ: 1
=================================================================================================================: 1
وَلَمَّا: 1
بَرَزُوا: 1
لِجَالُوتَ: 1
وَجُنُودِهِ: 1
قَالُوا: 1
رَبَّنَا: 1
أَفْرِغْ: 1
عَلَيْنَا: 1
صَبْرًا: 1
وَثَبِّتْ: 1
أَقْدَامَنَا: 1
وَانْصُرْنَا: 1
عَلَى: 1
الْقَوْمِ: 1
الْكَافِرِينَ: 1
â€¦: 1
ạ: 1
=८: 1
=४: 1
繁體中文: 1
أُو۟لَٰٓئِكَ: 1
ٱلَّذِينَ: 1
حَبِطَتْ: 1
أَعْمَٰلُهُمْ: 1
فِى: 1
ٱلدُّنْيَا: 1
وَٱلْءَاخِرَةِ: 1
وَمَا: 1
لَهُم: 1
مِّن: 1
نَّٰصِرِينَ: 1
펜타스톰: 1
✻: 1
Оправданы: 1
единогласно: 1
Братья: 1
Ибрагим: 1
Джабраил: 1
Махмудовы: 1
Сергей: 1
Хаджикурбанов: 1
Павел: 1
Рягузов: 1
оправданы: 1
отпущены: 1
под: 1
стражи: 1
зале: 1
суда: 1
Обвинение: 1
делу: 1
журналиста: 1
Анны: 1
Политковской: 1
развалилось: 1
глазах: 1
А: 1
журналистов: 1
Холодова: 1
Хлебникова: 1
покушении: 1
Чубайса: 1
расстреле: 1
гражданских: 1
Чечне: 1
†: 1
९३७: 1
ऌ: 1
Записи: 1
меткой: 1
Дневник: 1
Российский: 1
Сервис: 1
Онлайн: 1
Дневников: 1
Ö: 1
🌅: 1
: 1
: 1
७८३८: 1
_________: 1
: 1
Наука: 1
Образование: 1
Эзотерика: 1
Бесплатный: 1
поддержки: 1
Контакты: 1
Сообщить: 1
нарушении: 1
ваш: 1
бесплатный: 1
блог: 1
४९६: 1
३९३: 1
جدیدایران: 1
موزیکبرگردتک: 1
برگرددانلود: 1
جدیددانلود: 1
ایرانیدانلود: 1
برگردرادیو: 1
موزیکمتن: 1
آهنگمتن: 1
کبیریمجتبی: 1
७७८: 1
Ä: 1
മലയാളം: 1
: 1
̄à¥‡: 1
à¤›à¥‡à¤¦à¥‹à¤‚: 1
̧à¥à¤¥à¤: 1
à¤¬à¥à¤¦à¤¿à¤•: 1
à¥à¤£à¤: 1
<★: 1
科学和技术: 1
★★★★☆: 1
: 1
ć: 1
☯: 1
७७९: 1
̔: 1
😎😎: 1
८४४४: 1
à¤μà¥‹: 1
₹₹₹₹₹: 1
🔹: 1
徳川: 1
家康: 1
८६८: 1
አማርኛ: 1
🚶: 1
👉🏻: 1
پارسی: 1
ý: 1
šč: 1
Український: 1
ស្តាប់សម្តីរបស់អតិថិជននៅខាងត្បូងឃ្មុំ: 1
С: 1
历史记录: 1
̋: 1
🔴📡🔴: 1
مشاعرہ: 1
~~~~: 1
~~~~~: 1
Мы: 1
убеждены: 1
оперативная: 1
качественная: 1
логистика: 1
один: 1
важнейших: 1
критериев: 1
работе: 1
современных: 1
интернет: 1
магазинов: 1
следовать: 1
этому: 1
критерию: 1
ряде: 1
городов: 1
у: 1
нас: 1
уже: 1
реализованы: 1
пункты: 1
самовывоза: 1
доставка: 1
курьером: 1
кратчайшие: 1
сроки: 1
городах: 1
Петербург: 1
Москва: 1
Нижний: 1
Казань: 1
Екатеринбург: 1
Челябинск: 1
Тюмень: 1
Новосибирск: 1
Ростов: 1
Дону: 1
Ярославль: 1
Тверь: 1
Калуга: 1
Орел: 1
Иваново: 1
Брянск: 1
Рязань: 1
Кострома: 1
Вологда: 1
Выборг: 1
Норильск: 1
Новороссийск: 1
Киров: 1
Псков: 1
Пермь: 1
Омск: 1
список: 1
обязательно: 1
расширяться: 1
: 1
ਹੇ: 1
ਜੀਵ: 1
ਇਸਤ੍ਰੀਓ: 1
ਮੇਰੀ: 1
ਗੱਲ: 1
ਸੁਣੋ: 1
ਤੇ: 1
ਗੁਰੂ: 1
ਸ਼ਬਦ: 1
ਰਾਹੀਂ: 1
ਗੁਣਾਂ: 1
ਦਾ: 1
ਵਿਚਾਰ: 1
ਕਰ: 1
ਕੇ: 1
ਸੇਵਾ: 1
ਭਗਤੀ: 1
ਕਰਿਆ: 1
ਕਰੋ: 1
======: 1
体育: 1
🙁: 1
Спасибо: 1
подписку: 1
наши: 1
новости: 1
Неверный: 1
формат: 1
адреса: 1
убедитесь: 1
пожалуйста: 1
он: 1
содержит: 1
пробелов: 1
специальных: 1
символов: 1
دری: 1
८९६: 1
😁: 1
×××: 1
ऽऽऽऽऽ: 1
=============: 1
४७३: 1
९८८: 1
¬: 1
: 1
据主办方消息: 1
该窟室本由于紧张的展出安排最初并未包含在此次上海展中: 1
经其与敦煌研究院的协商: 1
最终达成近一个月的展出安排。此后: 1
该窟室将先返回敦煌: 1
为其: 1
月份美国盖蒂博物馆的展出做提前运输等准备。北凉: 1
窟提前撤除后: 1
美术馆将以纪录片以及线上展示的方式: 1
继续为公众展示其艺术魅力。: 1
XQ: 1
карина: 1
😜😜😜😜: 1
😀😀😀😀: 1
८३४७: 1
$$$$$$: 1
■■: 1
👌: 1
४३८: 1
७३८: 1
: 1
================: 1
à¤¤à¥‡à¤μà¤°: 1
à¤‡à¤¡à¥à¤°à¥‡à¤¶à¤: 1
à¤•à¤¿à¤: 1
à¤œà¤°: 1
à¤•à¥à¤°à¤¿à¤: 1
̧à¥à¤Ÿà¥€à¤: 1
̈à¤•à¤: 1
à¤¬à¥‰à¤: 1
à¤‚à¤¡à¤¿à¤•à¤: 1
à¤•à¤‚à¤¬à¥‹à¤¡à¤¿à¤: 1
à¥‰à¤¬à¥€: 1
à¤°à¥à¤šà¤¿à¤: 1
̧à¥à¤: 1
̈à¥à¤¦à¤: 1
à¤•à¥€à¤®à¤¤: 1
à¤¬à¥‡à¤¡à¤: 1
à¤°à¥€à¤•à¥à¤·à¤•: 1
à¤μà¤¿à¤°à¥‹à¤§à¥€: 1
̄à¥à¤μà¤: 1
à¤œà¤Ÿà¤¿à¤: 1
à¤‚: 1
à¤μà¥€à¤°à¤: 1
à¤¶à¤¿à¤μà¤: 1
à¤£: 1
̧à¤¿à¤¤: 1
à¤à¤¿à¤: 1
à¤‚à¤Ÿà¤: 1
à¤¦à¥Œà¤¡à¤: 1
̧à¥à¤°: 1
̧à¥à¤Ÿà¥‹à¤: 1
à¥à¤Ÿà¥‡à¤: 1
̈à¤¬à¤°à¥à¤: 1
à¥€à¤•à¤: 1
à¤°à¥à¤•à¥‡à¤Ÿà¤¿à¤‚à¤: 1
à¤•à¥‚à¤¡à¤: 1
à¤°à¤¿à¤¬: 1
à¤šà¥‡à¤: 1
à¤•à¥‡à¤°à¥‡: 1
à¤¬à¤šà¤: 1
à¤¬à¥€: 1
à¤à¤: 1
̧à¥à¤®à¤: 1
à¤¤à¥à¤°à¤: 1
à¤¬à¥à¤°à¥ˆà¤‚à¤¡à¥‹: 1
à¤‚à¤šà¥€: 1
à¤šà¤®à¤: 1
à¤°à¥‹à¤¶à¤: 1
à¤¢à¥à¤: 1
à¤¡à¤¿à¤¶à¤: 1
à¤•à¥‹à¤¡à¤: 1
à¥à¤¬à¥‹à¤†: 1
̈à¥à¤: 1
à¤μà¥ˆà¤œà¥à¤žà¤: 1
=͟͟͞͞٩: 1
๑☉ᴗ☉: 1
੭: 1
à¤°à¤¿à¤: 1
à¤¤à¥à¤°à¤¤à¤: 1
à¤‰à¤¦à¥à¤: 1
à¤μà¤¿à¤­à¤: 1
à¤¤à¤¿à¤: 1
̄à¤¶: 1
à¤•à¥à¤·à¤: 1
à¤¤à¥€: 1
à¥ˆà¤®à¥à¤¬à¤°à¥à¤Ÿ: 1
: 1
+=: 1
^=: 1
८}: 1
簡體: 1
ᄉ: 1
९४: 1
={{: 1
X__: 1
கிழவனுக்கும்: 1
குமரன்போல்: 1
முடி: 1
வளர: 1
அகத்திய: 1
சித்தர்: 1
கூறிய: 1
மூலிகை: 1
ଅଟକାଳିଅଟକାାଳିআলিপুর: 1
জেলা: 1
আদালতে: 1
ক্লার্ক: 1
✷: 1
🙏🙏🙏🙏: 1
🍌: 1
ភាសាខ្មែរ: 1
॓: 1
Указатель: 1
уровня: 1
топлива: 1
Евро: 1
г: 1
продажа: 1
цена: 1
Алматы: 1
ТОО: 1
卢: 1
声: 1
远: 1
⚡: 1
▶: 1
: 1
ż: 1
८८६: 1
Î: 1
فارسی: 1
: 1
جدا: 1
: 1
алкоголь: 1
альтернатива: 1
анархия: 1
ангелы: 1
громкая: 1
музыка: 1
добро: 1
жвачки: 1
животные: 1
жизнь: 1
зло: 1
ирокезы: 1
клёпки: 1
концерты: 1
космос: 1
косухи: 1
крылья: 1
лилии: 1
любовь: 1
люди: 1
мир: 1
മലയാള: 1
ગુજરાતીதமிழ்ಕನ್ನಡਪੰਜਾਬੀاردوമലയാളം: 1
※: 1
Поддерживается: 1
жизнедеятельность: 1
человеческого: 1
организма: 1
специальными: 1
центрами: 1
клетки: 1
постоянно: 1
генерируют: 1
проводят: 1
электроимпульсы: 1
позволяющие: 1
сердцу: 1
предсердиям: 1
желудочкам: 1
сокращаться: 1
определенном: 1
ритме: 1
состоянии: 1
покоя: 1
уд: 1
мин: 1
ZZ: 1
☀: 1
Освобождение: 1
Варшавы: 1
завершило: 1
первый: 1
этап: 1
Висло: 1
Одерской: 1
операции: 1
советских: 1
войск: 1
Были: 1
созданы: 1
благоприятные: 1
условия: 1
дальнейшего: 1
наступления: 1
началу: 1
февраля: 1
Польша: 1
была: 1
полностью: 1
освобождена: 1
この時期に何度も来ている八景島です施設誕生からもう: 1
年も経過していました: 1
オープンの日には家族でやって来ましたおりしも「第: 1
回八景島あじさい祭」が開催されていました: 1
土: 1
～: 1
月: 1
撮影: 1
カメラ: 1
מזה: 1
שנים: 1
מיה: 1
מטפלת: 1
ומלמדת: 1
רפואה: 1
סינית: 1
עתיקה: 1
באמצעות: 1
דיקור: 1
ותזונה: 1
ובנוסף: 1
בהנחייה: 1
של: 1
טנטרה: 1
בודהיסטית: 1
טיבטית: 1
ចំណេះដឹង: 1
小时: 1
妙高市の買取業者で洋服を買い取りしてもらった方は、店内をじっくりと見たことありますか: 1
とっても広い店舗、必要以上の従業員、そんだけ経費がかかるなら持っていった洋服を格安で買取されて当たり前、妙高市の買取業者ではなく宅配買取だと店舗も人件費もないから洋服を高く買取されて当たり前だという気持ちになります。と言いますか実際、妙高市の買取業者で洋服を買い取りしてもらうよりも宅配買取の方が洋服が高く買取してくれます。: 1
̄à¥‚à¤Ÿà¥‡à¤‚à¤Ÿ: 1
à¤®à¥ˆà¤: 1
スポーツスクエア: 1
スターサップ: 1
😢😢: 1
Окружающая: 1
среда: 1
полна: 1
вредных: 1
веществ: 1
влияние: 1
отражается: 1
печени: 1
Здоровая: 1
печень: 1
фильтр: 1
оставляя: 1
организме: 1
полезное: 1
মোঃ: 1
মনসুর: 1
আলী: 1
♡: 1
جيد: 1
☆: 1
ࣦ: 1
qY: 1
___: 1
✅: 1
〉: 1
YX: 1
🔶: 1
😔: 1
❌: 1
😕: 1
👫: 1
🏃🏻: 1
♀: 1
🖤: 1
🛤: 1
🏍: 1
😒: 1
🤲🏻: 1
😰: 1
à¤•à¥à¤·à¥à¤®à¤£: 1
⋅: 1
ΑΝΤΑΛΛΑΚΤ: 1
ΥΓΡΟ: 1
ίναι: 1
εμπλουτισμένο: 1
ενυδατικό: 1
γαλάκτωμα: 1
φυσικής: 1
προέλευση: 1
αθώς: 1
ένα: 1
σύμπλεγμα: 1
βιταμινών: 1
Η: 1
πλούσια: 1
βελούδινη: 1
σύνθεσή: 1
του: 1
βοηθάει: 1
στη: 1
θρέψη: 1
της: 1
επιδερμίδας: 1
σας: 1
Á: 1
🔔: 1
ě: 1
ší: 1
३८४: 1
९६७: 1
=Z: 1
✳: 1
: 1
☞: 1
المملكة: 1
السعودية: 1
中华人民共和国: 1
台灣: 1
ישראל: 1
日本: 1
한국어: 1
대한민국: 1
Россия: 1
ế: 1
➡️: 1
⠀: 1
⠀⠀⠀⠀⠀⠀⠀⠀⠀⠀⠀: 1
⠀⠀⠀⠀⠀⠀⠀: 1
🙏🙏: 1
८७४९: 1
~~~~~~~~~~~~~: 1
🌷☺🌷: 1
Ø: 1
qX: 1
८७६: 1
९९९७: 1
: 1
: 1
: 1
: 1
४७४: 1
❤❤❤❤: 1
६८६: 1
७८९: 1
⚖: 1
оболочка: 1
Опадрай: 1
Розовый: 1
тальк: 1
спирт: 1
поливиниловый: 1
макрогол: 1
титана: 1
диоксид: 1
краситель: 1
железа: 1
оксид: 1
красный: 1
лецитин: 1
➔: 1
३३४: 1
९६६: 1
७७६: 1
Открыв: 1
карту: 1
нажать: 1
появившуюся: 1
кнопку: 1
Акции: 1
рядом: 1
увидеть: 1
куда: 1
дойти: 1
прямо: 1
: 1
: 1
💢: 1
_Y: 1
ನೇರಳೆ: 1
ಮಾರ್ಗ: 1
à¤°à¥à¤¥à¤: 1
̧à¥€à¤¤à¤: 1
à¤®à¤¢à¤: 1
̧à¥à¤¤à¤: 1
à¤•à¥à¤·à¤°: 1
̈à¥€à¤: 1
à¥‡à¤¶: 1
̈à¤¿à¤°à¥à¤μà¤¿à¤μà¤: 1
à¤•à¥à¤μà¤¿à¤: 1
̈à¥‹à¤: 1
à¤‚à¤¤à¤°à¤: 1
à¤¤à¥à¤®à¤: 1
̧à¤œà¥à¤œà¤: 1
à¥Œà¤°à¤: 1
à¤­à¤¿à¤: 1
à¤à¤®à¥€: 1
à¤®à¥: 1
à¥: 1
à¤«à¤: 1
̧à¥‹: 1
à¥à¤°à¤¤à¤¿à¤¦à¤¿à¤: 1
̧à¤®à¤: 1
̈à¤¤à¤: 1
à¤°à¤μà¤¿à¤: 1
à¤μà¤¿à¤§à¤: 1
à¤‰à¤: 1
à¤•à¥‡à¤: 1
à¤‡à¤Ÿ: 1
قنادر: 1
الدار: 1
بدون: 1
نت: 1
한국의: 1
३६८६: 1
: 1
После: 1
необходимо: 1
обработать: 1
кутикулу: 1
питательным: 1
маслом: 1
сам: 1
ноготь: 1
покрыть: 1
защитным: 1
средством: 1
९३६९४: 1
९४३: 1
७८८: 1
ZX: 1
¿Q: 1
⚜: 1
६६७: 1
XXXX: 1
_____: 1
ဗမာစာ: 1
: 1
========================================================================================: 1
३६७८३: 1
